025A0DD60B97072D03BB0AA1052A05860203075F0459F968FE4E09E30439016701CC04D2FC310810FF25FFF6F993F6610369FCEFFCD8088203280925FA11FFAC,
042302C00321129C0EE6F6F8F9DE03AEFF191160FF8400DEF77BFB5615FCFDBE0DA206E0016DFDFA0A940B0C016E0BB00179FDCE0B58F23006F4FE8AFB5A0E3A,
0689FE9E076001050735FE91023C072A097002DB0373F61E0B140066FDAD047508750D300B09F917FD1200BD0483FE2D0437F75703CF06B6FF22041803580110,
01261280012FFE82F1B6045503CE022401130180FF9E0A31045CFFDCFD9209A008140B46FEFBFB4F054CFA3C0189046314710298055AFEAF000808D90541FB72,
F8790A26007AFF5A1AD5F688FE790242039F06D5F540F6CFEC81027F24F71121F6CAFFD40921FF4705BD0C090AD70BB31929FEC1FB9F0BC60EC400930145079C,
0C05F980086BF6D4FE4411E00F6A04A9FF51FD48FE12FBAD0648FC8C0A8B01DF04DA05F20087FE7F01370971FF47F9D201B407F90B6E019B10390A330BB1F6F9,
FFDF04D3053B0BD203BB0C8AFECAFDF5063F043207060198073DFF18107905500D780BF2002AF89A0797FD260A1A03500468014208E4FCA4FEAE043FF33506C2,
FA56067B0001004AFDD5FF9702CFF7A5F7DF1136338F0E5008E605FA0651FE2E06DA03670582FC270D54010D0489FBEE003D059DFA30066EFFFE0ADE0E680550,
00000000000000000000000000000000000000000000000000000000000000000000000000000000000000000000000000000000000000000000000000000000,
00000000000000000000000000000000000000000000000000000000000000000000000000000000000000000000000000000000000000000000000000000000,
