FF00000000FF0000000001000102FF0000FF020000000001FF0000FF00020000000101000000000000FD000000FF00FE0101FEFF0000FF01000000FF00000001,
01F90005FBF402000001FE03F801FE001005F90102080705FFFC02FE00FC03FFFFFF040A01FFF9FDFF0AFC04F307F30304020401030804060000FF060600FE09,
FF02FF05FAFA0200FAFF03FEF7FDFCFF0602F1F9FFF8FFF4FFFEFC03FFFFFF0400F5FA02FFFD06020108FFFE06F9F005FC0808FE05FA00FEFAFFFF04FFFF0105,
FC0200FEFFFDFF01FE03FB0001010001FE0104FD0001FF0200FF030101FD0000010402FE0001010101FAFE0001FE04FC0201F9FEFE02FE03FF0102010201FFFE,
FFFFFF060401FF00FA0300F9F7FD0301FC00F4000104FEF5F8FFFCFEFFFF02FDFFFBFD00000406FA00000301FF0303000AF806FBFDFF0501FA01FCFEFBFF0308,
0003000102FB00000104010001FE00000002010300FB0102030100030000000100FE000000FF010200FC0201FF03FCFC0300FE01FE0501000000000300000202,
FB04000500FF050000FCF9FFF800040006F6FAFF00050003040401010004000300FCFF0400FEFDF6FF0AFD0403010305FE020503FD0504FEFD0102FCFEFFFE04,
DFFDFD0DF6FFFFFB0AFF30FC0307EDFB0807FFE8FA05FE0705FCFEF1FFFEF9F1FBFB0010FAFAEEE7FFF7ECFF08040400FF0504E92D00FCF5FEFE010406FA0509,
FFFFFF02020000FF00FF020101FF00FF04010102FF02FE01FF02FFFE0001FFFFFF020102FF000602000202040402020201030301010300FF00000000FEFF0007,
01F900FB110407FE02FE0101FBFD0DFAFAFDFA050002F30F0103FF01FF03FD04FF01FEFEFDFEFE0200FE02FB06FBFDFEFF07070005FD03070200F9FDF80001F9,
F10001F4F7F6F10002FEFE0CFB04FDFE0BF5F5FA01FDFD0E0400FF10FFFEFE0F02F5040EFFFDFDEFFF19FC0303090D04F7060806FA09F9040300FCF700FFFBFD,
01FF000000FE0000FF00FF01FF00FFFF00FFFE000000FF00FE0300000000000100FE000000000002000200FFFEFF0002FF0101FF02000000000001020000FF00,
0704FE0905F7060001FD0C01F8FBF70206F3F3FD00F903FA030AFCFEFF040202FFF9FA0301FAF0EFFF0EF300FB0B02FFFEF9FBFF050105FBFA0001F001FE0303,
000301FE03F5FCFFFE0500FF0303FEFFFE0017FF00F60105FC02030201010105000306010003070202F602010E02F6FB05FFF3FD0105FE01000303FC01000204,
00FD03FFFFFF0102FFFAFD01FD01010202FFF50003FE00FF05ECFC01FF1A03000000FB0103030001FF0E00FEFFFF02EFFFFE17FFFF0101F900FED7FF0004F300,
F70500000B0307000BFD0103F604F4000201F4030102FF0D000301FE0003FEFF00F701FFFFFE070001090012F7FEF802F7FD04FAFC07FBFFFE00FD01FFFFFEF7,
0000000000FEFC000101FF01FDFEF6000004FAFD00FB01000602FE0600FEFF0600EF020100FF00070008000104FAFB04F9080BF505FC08000100FF020001FDF8,
F70102F60CFFFA010E030AFCF704FC02EEFF1D070104060204FD0000010701FE010B07EB0102FDF200F70809FAF3F20002E6F90AFFF7F50406010803020002FD,
03F9FFFBF605FF00EDFF02FC03FEFF00FB0313FE000100FAFFFEFDFC00FE0102000502FF0002080100F501FCFBFBF6FC04FEF6FF00F9FFFF01FE0202FD0002F9,
FFFF000100FE010002FF0001FF0200000003020000000000FE04FEFF0001000000FFFE020000FEFF0002FFFF00FC00020101FF00FF00FE01FFFF030604000101,
FD0101FF05FCFE00FE000900FF02FC01020102000000FE0601010101000000FFFF000000000001FD0002FB010401080001FFFE0206010102FE01020003000002,
F50501FC0DF6FCFF10FBF40404030001FAF70FFE00070011080703F10000FDF401FBFEF3FFFEFFFB01F9FE120D0108FE00FAECFCF210FF00FB0301F9FFFEFDFD,
F001030AF6EFF90000FEEF07100A13010902100802FA001205FF010101FF000302DD010B01FEFBF200FAFB0306FB0700DF08F010F6030B00030102FEFF00FDEC,
FF0E01FFFF0102FFFE06FC03FAFD08FDF90DDDFF0103F10504FEFDFFFF08000000FA0500FE0AFC0AFF1107FCFFEEFF1400081801FE06030D0D0102BE02000802,
001903FF03FF03030006FEFDFFEC04030209F10303FB030005DB080301E602FE040200FF03F5FE03030BFF0000060100FDFC0700FF0201F5F803FBF5FE0404FE,
01000104030200FFFC05FB06FCF9FCFE00F7F5FF0105FDF6F3040100FFFD0004FFFE0303FE00F5F9FF0AFC0200FAFCFD00FE09040002FF0BFFFFF91200FF0004,
00010101020003000002FEFF050502FFFE07030400FD0202F9FE00FD000000FEFF0201FE0002F6FFFFF5FF0100F1F6F60400EE000105FD0100FFFFFD00000203,
F801FF03FDF302000003FB00FE01FC00FE05060100FC01FFF902010000FF0000000102FC0002020101FDFF000305F90002FBFDFBFDFEFFFEFE0102000000FF05,
03FD000AFDF60602000604FCF8020501FF0210FD01F60402FAFE030301FF0100010008050202FEFE01EC0307D80602FB0AFFF20201FEF501FF00FE0003FF0104,
FB0001FCFFF9FC000100F902FF01FE00FEFE03FE00FF02FEFF0101FF0001FFFE01FD00FD00FFFFFE00FBFF01FF01FEFEFEFFFAF9FCFEFE01FF01000000000100,
FF0EFEFEFB03FF00050B06FD07FFFC0002FB180201FE0300FBF0040002FC0103FF09FE01000104FB02EBFF0501DF00F40001EFFD04FC010DF101FBCC01FF0B01,
FE0000FFFFFF0000FF00FE000000FF00FFFF020000FF0000000000FF000000FF000000FF0000FFFF00FDFFFF00FF00FE01FFFDFEFF00FF0000000000FF0000FF,
F800020003F3020004FCFF03FE06F70100F806FA010401060304FFFE00FD00FF01FCFDFE00FDF9F900FBFD05020108F800FFEFF8F702FEFFF90100F904FE01FE,
FFFD01000001FF0100040102FE0800020407FE010002010001070301001F000002FF01000101030001030201010802FD010103FF010001FE0001F6090001FD02,
000A0000FF010200000100FE00F5010003FF07FF0001FD0301FF010301DDFFFF0101090200FE0201010201FF010001FC0101FFFFFF0002FE01001DFEFD000601,
01FF0104FF0104FFFF010400030100FFFE020F01FFFB0205FDFF010100FFFF01000203000000010100EA01FD1100E6F60304E80103FDFF000100020101FF0101,
05020005030304010401060004FD040105020003000300020102020300040004010403050100040400030503020203010404030505030202FF000102FF010006,
02FF0000080004FF04FDE90506FFF7FF060303EF0002FD000B04020B01FDFD0900FE000400FAF108FFE6E60600FD00F90C08EBEE12FFFC0300FFFE02FDFEFE00,
19F9FE0C0D0212FF01FC03030CFBEA00FC06F9F900F304EF0A00FDE200FB00E300EB03EE01FDFB1CFE0B0300FFF60106040D16E709F50EFE04FE01020002FBFC,
0000000100FD0100010000FFFF010000000007FF00FF00010001010101FF000001FF02000001010001F90000FE01FF010001FB0000FF00FF0100020100000100,
FEE9FC030002FDFE02FD01020201FCFD01030DFEFD02FC00E10104FB01CAFE02FE020803FE0305FC00FB010101F9FF010103F2FF01FE000300020D0000FE0000,
020002010213FE010103F9021A00F7FFFEFAEF03000102F1FEFFFF0101FA00FD01FEFA05FFFD09F00103F30409FC04FCFDF21506FC0E01040203FFFB020304FE,
010200F8FFFFEC000206FE02FF0500FF0300F307FF0202E001FC01F400FB00F7FFFA000200060304010005050200F60300FF0A000005F9030402FD0003010001,
EAFF020EFAFE000105FFFA00F9050C0303FD0CF501050205FD02040001FD0102000701070302F7EC01F1F103020C02F50002ED09F2030D05FD02FFFE00FF0105,
FD0400FD0000FFFF0303F700050402FE00FE03FEFF05FD050001030101010000000605FFFF03FF0000FC0100000000FF0401FA00FD080100040102FE00FF00FE,
010002001101FD020A060003F80AFD03FAFFEE0402F902F4FEFD020B00FC000B02FC03FC030502FF000A0007FC06FC0AF9FA10FF02F40909030001FF020203FB,
FD0502FB05FD0201000007030702F102FC00F2010105FF06FF0700F60002FFF401FBFEF901FFF8F5FF11F40905000301FDF4FEF6FA0601020101FF0101010204,
FFFE00F602F6F7FF02FDFA020201F9FE03FD05FDFFF80002FBFBFEFE00FDFF0100EEFE02FE0004FF00FAFC03040001FEFA00FFF70201FFFF0000FDFEFEFFFDFC,
F9FFFE0505050DFFFDFEF5010506FAFF0504F4D2FFFCFDF50401FE0400020002FFFEFE02FEFF0B01001AEDFEFE0B020601041CEDF1FA07FA01000102FFFFFF04,
04000003FDD704FE02FEE103ED02FD00F9F3120401040406FD01FF000004FE0300EC01F900FCD8F5FEF6FC0307FC06FC02FBE7070501FEFCFFFF04EEFCFEFEF8,
020000000102010001FF0300010001000104FE030001000001010001000000FE0000FF010001FD010000FE0100020201FF00010302000100000001FE00000000,
08FFFE0301FE03FF07000C01FEFE01FF0702F9FEFF0AF8FB0101FE030000FF03FFFE0105FDFFFD01000301FDFD00FD0400FD0802020203FC0100FFFFFCFF0003,
0402FFF4FC00F9FF03FFFB000404FCFE06000AFAFF02FC06FF00020101FDFF0200070005FF00FE0400FAFB04000200FC0204F9F8FE02F8000101FF01FE00FFFE,
000401FE0003FE01FE0109FFFD02FF00FDFEFEFC0103FEFE01020201000000FF00050402FFFEF5FA000FFFF9F8FD0600F7FB08FE03F6010302FF00FC01000406,
F50500FE03F503000105E902F301F001FB02F0F7000204FF0202FFFD0002FFFB00F900F70000F9E9FF11F50000F90008FDF70DF3F606F9FD0100050202FE02FF,
03050103FE00020105FE0002FD000202FCFFEF030101FCF70003FDFE0000010000F7FE010002FDFF0019FD051706E203FDF90B0300FFFE02FE00FEFEFE020203,
02FCFFFCFDF2F7FFFFFD0102F5F50CFFFFF4F118FE07FB08000401F401FEFCF601F101F6FF01F0FE00150D0209000606EFF80D11021301FD0801F601000200F5,
0A070101FCFFFC00FF00FBFE12FD03FB0604F303FFFA03F702040009FFFFFEFC00FAFE0F00FEFB06FFF8FD0D0601FA030BE705FD001001FD02010006FF00FD0B,
03FFFFFC02FEFE0000020301020109FFFF05FE05FFFEFDFF000401010003FF01000100FFFF01FF07010503FD0202000200020603FF02FE01FF00FE03FE00FEFF,
FBFCFD13FD00FCFE05FD13FE04F9F3FF0C0BE4080013FEE4FCF90404000202FF000D0406FDFDF7EDFFF7FF15FEFBF500E4FCFD0206EBFEF306FF010C0401FF0A,
0300FEFFE900F101090000FCF8FD0300FE00F905FFFC04E301FEFFF500FD00F500FF05F600FF0701000904E9F707EE04F6FA0A0109DAFFFD00FFFF0103010104,
00020102FD080400FEFD04FEFEFFFC00FD00F8FE000403FF02000001000000000001FB0401FDFEFD00FDFB0100030202F7FC05FD0003FDFF0300FF0301010100,
0003FEFDFF04FE0000FF00FF02FFFE010402090100FCFE01FE04000401030002000200FF0000010001F3FFF9FD0405FF04FFF600020103FCFF01FF00FEFFFEF6,
FE0000FFFFFDFE00FD01FB00FD000000FD02FFFF0001000101FF01FF00000000000101FE00FFFE0100FEFCFDFE00020100FFFEFF0100000000000003010001FD,
00F7FDFF00010201FDFCFD04FEFE0302FDFFF602FE0000FEF8F7FE00FFCAFF020100F0FF00FDFF0100080000FF04023301FF000100030000FC021C0303010602,
FC02000301EB030103000901ECFFFE010301EFFC00FE00FDFCFEFC0100FE000101F0FC02000012F9010FFF0200040007FD0019FE0303FD07FD01FEFD02010401,
FF10F9FD000903FEFCFCFEFAF8FE01FE02C7E4FFFE00FBFE0509FD02FF04FDFEFD0403FFFD090B03FD0BFEFD02F0030EFCFE09FD020402F5F9FFF523FA010006,
FFFEFFFCFB0801FE0502FA01020601FEF6011602FFF6FCFCFFFD030302030006FF0301FAFF040FF901F801030BFD0F0100FCF7050402FFFB03020200FE00FEF1,
F9000000FFFBFE000001FA01030104FFFC01010100FE0002FF0002FB00FD00FC0006FDFC0001010500F6FE0007FB03FE02FBF6FCFDFFFF00000101030001FF01,
E0FF00F0EF03DF01080306FFF50017FF0600FB0A00F305040101011300030014000DFF0E000303E3000F0D01FAFFFE04E6F50C1EEF05F5FFFF000100050000F9,
FDFF010003FE010109010E03FE02030105FCFBFE0007FFFF04FF01FE0004000102FDFDFB0202000600061108FB020006FF0B060005FE0101FC00000200000000,
FB0100FFF901F600FA04FB0205FFFFFE03FD08FF00F7FE010002030901FFFF0200F90201FFFFFAFC01FFFA0306FEF9FCFFFFFCFFFE0404FE0501FF02FDFFFFFF,
010000000102FF00FF000000FFFF00000000FE01000000FEFF0100FF0000000000FFFF0000000002FF030000FF000002FE00030000FFFF0000000001000000FF,
F205FD0D0A010C00FA06FCF3F0FF1401ED00E8FEFE06FEF4FB0001F0FF0400F0FE0303F3000701F6FF1502FDFD06010D0BED160EF2FF0EFE0102FEFFFEFF030A,
EC0200FCF700F2000BFD0405FB000E010300F80000000109050401FF0001FD0301050000FFFDFFED0010000802FD0002EF01070CEF0E04FDFE00FFFD00FFFCF5,
0100000100000000000001000000010000FF00000001000100FF000000FF00000001000000000101000001000000010000010001000000000000000000000000,
0201000004FF040003FF0401FF0000000201FA08000201010101FF00000300000002FD02010002020003030302010206010006000105FF00FF00010101000001,
000607FE0101FE0300FF02FE0105FF0303020501040004FFF6F9050101AE030204FE04FF04FD00FF01F7000002FC00FD01FEF70101FE04F902041F01FD050EFF,
0103FB070306EAFB1B0606070115FCFC00F5EBFAFCF4FDF1F4FC02E000FCFD03FD02010CFA0308FDFFFA02DA02FAFC0B03050E0201F3F90FFE00F8F806FDFC0B,
000803010003FF010407020203FBFFFD02FF08000200FE0219B20D0102FB0101020008FF00FB02FE03F6010201FCFFF00302FA0103FD0302FE02F7FC0402F701,
F80600FEFA0EEE02F90612FA03010303F1FA160501F9030300FE010101FD0104FE0703F502080EF701EF0EF9F701F5FEFFF1000DED00F806000000FDFE010105,
070000FDFD00FD00FE00FFFF0301FE000403050000FD00000100000300FF0002000101030001FF0400FD00FC00FF00FE000301FF02FFFF01FF0000FFFE0000FF,
010200FD01FCFE0001FEF8FD010007FF00FF0501FFFD0000FF0300010001FE01000402FE00FF010700F703020200FFFD0202FAFD020000FE03FFFFFE00000000,
FFFE0004040E06FFF50301011204FE00F50611F601F8FFFFFD0002F601FB00F1FE0000FF0004EBF101F2F5060C00F8F70FD9EEF9F7020406040202030001010B,
02030002FF120001FE0204010F010201FCFDFFFD01FD01FD01050201010301F60003050200FFFA06FF11F5F800FFFE08F3F318FFFC03000208FFFF04010100FB,
04FEFF06F8FDFB00FC00060303FEFE010200FEFF000500ED0100FFF9FF0100F6FFFD03FF0001FCFF0007FF050404F302F8FE020400070301030000000201FFFD,
0AFAFE0F06F70FFE0AFDFC00EFF20AFD02FFEF0900F7FCFF0000FF0800FFFF08FFF20607FEFCF209FFF90406F602F80005FFFE0908FD010203FEFD00FD000000,
05FFFE0201020400EE0401FE01FC02FFFF03F60100F600F1FBFF01FC0101FFFE00F800FCFFFEFF0500100601D9FA0804FBFC0902FDEC06FE01FFFE05020102F2,
06FFFF00FD0202FF000006FF04FDFDFE00030302FFFEFB03FF000003FF00FF0000030100FFFF0000FFED0100F8FA01FC04FFF50200FA00FF01FF0103FC00FFFD,
FA0000FDFF05FC00FC02FFFF07FFFBFF02FD08FC0004FD02000201F802FDFFF600070502000407FE01FCFEFD07FC04FD0303FCFCF900FAFD0101FEF902010205,
02EB02FF00FF01FDFF01FE05FFFD01FF01FDFA010200FE00E33D0302FFFC0100FF010600FEFF0102FE06010000000206010004000001020AFD00F2FE00FE0600,
0F0502F9FAF9F4010106020AF810EC05F7FD0C07020D06051005020300FF01040201FA0302FFFEFB01ECFC0C000502F800F6E9011405F107040107F905FEFF06,
0D02FEE0F900F3FE02030003F3FEFBFDFE00F300FD09FA030203FF060000FE08000AFD01FCFC050E011503FF0209FF09FFF914F20603D2F80200FF00FE00FCFF,
E9FFFF01F7FCF400F50405F8F1020EFEF201F1FCFFF901FCF7FDFF0800FF000EFF03FEFFFE0502F7010906080005F70107F80900F7130504F602FD0600FF050A,
F6FFFF07FDFCF700FEF8FEF5FA000EFF06F6FD05FFFC05FD020300FC00070002FF09FAFF00FC00FC00F906000404FA050209FCF903F807FCF9FF0309FFFEFE0E,
EE030306F50104FFFE04F7FFFE0103FAFDFDF2F6FF12FE0A04FD000100FCFC0502F8FBF2FEFF130E01E108F503020606F11C0FFA05F5FBF90D010006FA000011,
040700FD000AFF0000FDFDFA000201FDFBFE0B02FF11FD08010505FD0102FF01000E07FDFE00F60300F7F600F4020CFF0102FB04FFFDFF0400000204FE0002F7,
FEFF000300FD0300FE01FCFF000001FFFA0007FD000200FF000103FF01FD00FD000003FA0003000001F80001FFFF03FC04FDF8FEFD00FEFF0101FF0200000002,
0A02FFF9F505FB00F7FFFEFF0502F6FE070107FCFFF6FEFA000201FE01FEFF0200020305FF02040300EEFF0206FCF8F9FF0BF4F60B03FDFB04FFFFFFFDFFFEFD,
FF0100FFFD00FF00FE02FF0000030000FF0002FF00010000000203FF010000FE01000300000400FE01FEFFFF04030401FF00FD00FF00000204020103010100FF,
01FE010104FC03000202FB00040102FEFD040700FFFFFE0802FF020200FD000301040403FF03FE0100F1FE0205FFFEFD0602FE000101000208010101FE020000,
040500FEFCF50601FD0101FE00F70500FD07FFFFFFF5FB020405000001FDFE01FF020A020000F50500F208FAF50301FEFF01F902FC03FAFF02FF0205FC0004FD,
00FE010000FB0300FE000000FB0100FFFEFAF70100FFFFFA000100FC000400FF00FB00FE0001FEFF0009FEFEFD00FF01FEFE08010100FF050001FD060201FFFE,
0404FFF00106F501EC0705010908FE02F7FD14FE00ED03FC010500F901FE00F60002FEF70102030401EF03F1F503FFFAF3FEF4FDFCEDF80302FF03FBFE0002F0,
FE020001FEFE0300FE010000F800FE00FC02FAFD000400F90102000000FF00FF00FEFFFE000100FB0007FC0201FFFB0201FA04FE00FE02FFFF0000FD01010003,
F60200FA03F20100FCF7FCFEFC091BFEFB00FF0FFB09FE0FFEFEFCF50200F9FEFF10E301FFF2F82E01F99C090504010BF4F8F50FF406F3020E0000FD06FF0300,
F3FF00F9080109FF01FDFB05FC0309FE0D03F0FC010AFF1201FF04000001010D0203F9E600FFFC0A000604FB020200FF0325FC0404FEFBFDFE00FF0506FFFBF5,
FF13FFFFFD03FAFF01F205F704FAFAFD012D0E03FE08FD030F0DFBFE0004FE01FF0105FF01F50FF7FFE003FD01F400FE0602E60002FB00F60AFF03D5F401F405,
0800FD0C0F011900E901F6FD15F9FE0003F9F1F8FFF3FBF3FE0701EEFF01FFEBFEEB040600FCFC17FE11FAF6F81A0104111509F9FEF706FEFF00F9F9FE02F8FC,
1802FDFE0BFD13FEFAFEF1FDF1F6DD00EA05FA060012FDF40004FE01000300FAFE0204EF0000FE16FE10F90003FB000414FD0BDB17FAF4FFFFFFFC03FF00FE0A,
FDFEFF03FBFFFCFE07FE0EFE0104F4FEFF05F8FBFE01FDFB0000FEFCFFFFFFF600FEFC03FE0204F4FFF1FF0106F609FD01FCFEFC0301FFF600010100FDFFFFFF,
0AFF00FBF608F701EE000AFF0C03FE02FA02160501F401FBFDFEFFFD01FF01FD0003FFF80201090800F309EFFBF4FFFDFB03F90108F0000202FE01FFFE0002F9,
05FAFFFCF702F801F90002FC03FF03010004070600FA00F9FFFEFCFD00FE01FEFFFEFEFD0102010500F409F900FDF8FEFFFFFA0503FFFDFE01FF0001FB01FFFF,
020000FF0001FE00FFFF0101FEFF00000204FA010000FFFD0000FF0100000001FFFDFE0100FF00010005020000010102FF0006000300FF00FF00FEFFFF0000FE,
010102FC00FEF6FF0002FA010A02FFFE02FF160001F70206FF0001040100FF0100F60401FF0005030000000010FEF2F9FFFEEEFC0203FF0004010200FE00FEFE,
00FDFD05FD08FFFFFFFF01FF05FEFE02FD060B010103FAFCFBFFFE0301020100FF010001000301FE0000FE08FC00FCFBFDF4EE04FDFC0000FBFFFE0603FEFEF9,
00D105FFFE0101FE01FA0002032000FCFFF80C000400FE02E604FFFFFE050302FE010800001201FFFDF8000102F800EB0201FE0102FE020506FEE4FA0600FFFF,
04FDFF0000F9030004FEFE00FBFE04FF0200FB03FF00FFFCFB0300FE00FEFFFD0002FDFF00FF060900FC000403FA00020201FFFF03FCFDFFFFFFFE0C0000FE06,
FDFEFF01FC02FD00FFFF010303FFFDFF01FFFEFEFF00FDFBFC06FFFB0004FFFCFF00FE01FFFDFEFC0004FDFE05FCFD0100FE0700FF0200FF0000FD02FE00FF01,
0602010E03FE0A010403F9040E00F602050010FB01F4050204010001000201FE02E9000701FDFF03FFFAF500F9F7FAFCFE0AF80107F3FC0200FF04FD04FFFFFB,
0B07020EF9F61400F607F8F9E3FFF002EF0123FD011701F30205050A01040300FF1D09F00202FBF501F6EFFE04F5FDF919E8F1ED12EAF708F90106FE00FDFF1F,
FA010100FF05FE01FEFBFEFBFD010802F400FA0101F706F20101FB0500050007000502FD01FC02050017040BEC07CF05F3FA0D05FAE50000010005FC050305EE,
020000FC0002FD00FB0103010500FB00FC03050000FA00030001010000FB00FF000101FF0000010100FA02F8FFFE00FEFE02FBFC0101FEFE01000001FF0000FC,
010B0304FDFF06FF020AFD0AFA1707FFFBFDC5FE0004EC02581203FDFF23FC0103FD0106FB05F90900E707FD0008FC3301031703FA04FC0717FF37FAFAFDF600,
F706FDEFF90701FD0FF7FE00E8C31EF6F1FFE4F5FAFEDF20052C041B0306F20B000E0601FAEDFF13040918FCFA12F1F4FCF80C01E709FDF7FF02ECFDF004F5F9,
FF01FFFFFC04F8FFFC07FD00F002F700F8FE0B01010600ED0101FC0000020104FFEE040100040FF40213FE030605F10001FB0D00FEFEFC04000303FA03000402,
0304FDFC07040200FF02FB00FD0003FC01ECE709FEFFFBFDE2E8FD0000E5FFFF01FFFC00FD040406000E04FC01BC0516FCFF19FCFD0201000301E80003010802,
F605000801000100F303F0040C00F8FE0F01F6FCFFEEFEFE0501010800FDFF0101EB030EFFFF0108FF0EF5EDFFF60807F6170E0300FF050003FFFE00FF00FEF5,
0501FFFB0403FF00F6FEFB01060309FFFA0101020006FF05FA0002030103010A000201FB00FEFC01FFF400F2E7000800FDFEF3010311FEFF00FE0101FFFEFFEA,
01FE0100001102000502F60008070500F8FF1C0101020103FE00040302FE0001010405010001E20700F0FF00FC0503F60100E80201FCFD0202010300020102F8,
010300040201020001FE0600FBFDF90001FFFD020006FE00000101FF000000FE00040000FFFFFDFC0003FD06FC020402F9FF010101F9FC00FD00FF010000FF04,
FAFD0009FDD90600FF02F704040006FF080604F7FFECFF070201FF0401FFFF0200EDFC12FFFC03FC01E5FC0104FFFCF70101ED08FB0EFC020702FF0400FFFDFF,
05FFFF0C0D040B0001030DF913F8F103FB04150C000100FFF80401D701FEFFD1FFFBFAF301FE06FC01E90608040B00F002F7F002F5FC0C00FE01FF060200FFFF,
010100010100010001FF01000204010000000900000000030101000100010001000202000000010100FC0200FF0201FF0202FF01000001010200020101FF0000,
00000000000000000000000000000000000000000000000000000000000000000000000000000000000000000000000000000000000000000000000000000000,
FAFE00FEFB02F8FEF801FB020001FCFFF401FCFC00F702F500FEFEFCFF0100FDFFFCFEFEFEFEFEFBFEF5F9F80200FF01F7F6FDFCFDF9FFFF0200010103FE02FA,
0B0300ECEF03E9020A0006051205E8020E011CFC01FD00070A05010D02FDFE0B02FB040B01FDFF0301E6000402F4FFF5E20DEAEE0900010403FF04FDFB01FDF2,
0301FF02FE01FD01FE000303F5FBFC020205EF05010202F70200FAFC00FE02FE01F7F60002FE05FC01040302FD0107FFF903FD0200FEFC03FC00FF06010102FF,
FA0601FB01FEF300FD050402FA02F00003FCF5F900FA01FEFB0100080003FF0600ED00040000FEF7000AF4FE03030203F3000AFDFF050201010001FF010001F4,
050100FC0100FD00FB0104FF0500FBFF0001060200F80002010000FE000000FE00FE000000FE010500F402FBFEFFFBFCFB04F9FA0501FFFF03000101FE00FFF9,
0201FF01FEFF010000000701FD00FD020405FF000002FEFF0102FEFF000400FD00FDFBFF010000FC000103FFFEFFFF010002FC0302FE00FEFCFF010101FF00FE,
FC040005FEFC0600FE00FCFDF7030200F702F7F90001FFF60206FF00000200FF00FD00FA0003FBF80004FEFEFF05FE01FFF90203FAF90401FF000002000101FF,
00010000FDF7FE00FE0002FFFB02FDFEFF01FCFC00FFFFF80200FFFCFF0000FDFFF40501FF030705000B030A0902F003020307F703030000FE00000200000206,
0206000201030201FFFF0604FE01FF0307FFFFFF010002FD0204FF000005010000FEF801020002FE000D0203030002080006050400FC0303FA00FEFF01000001,
F9FF00FAFA00FCFFFCFFFB010102F900000105FA000102FCFCFEFEFA00FA00F800FF00FFFF00FBFD0000F8FAFFFE01FEF9FB04FCFAFDF9FD01000001010001FD,
02D80009FDFA0BFF07FB06FDFDFF05FE03F5F900FEEE0502D4D3F706FFE80005FE03F905000400FBFEE000FEF7F7F3F00201F20800F3FBFDFCFEF0F503FD0302,
04040404FD03FF02FDFD06FF0200F3040202F904030205F20201FB0300FF02FB01FBF708020004F90105020013040EFFF6F9040001ED0003020001010301010B,
FD1E1BFCFF01FF17FF11FF080109FF21F706F4FE10FF06030B02080104040C000E0100FF1406FC03072703010004FFFF010301FEFF01005DFB0017000B080AFF,
0400FF0109FF060001000101010101010001010100FF0001010300000003000300FFFF050000FE02000402040000FD000102FF04FF02FF00FFFFFE0203FF0002,
FA010102FDFF0001FD1F010208F6FAFA05020CFCFF04F8FB030825FC09F4FDFF01014CFFFF10FFFE07040200FC06FD00FC0504FDFE0000041D07F901FB08FC06,
FFFDFF01FF0705FFF901FFFE07FD04FDF6000506FFF7FEFFFD0002F901FDFFF4FE0703FBFF01FC0201F803F90AFFF9FB06F9F403FD02FFFF05010202FE010000,
05FE0000FD060000FE00F9020401FC0002FE08F8000001FFFD02030001FD000401FE04030000FE0500FCFAFE0201FEFCF704F8FC04FE040006000001FE00FFF7,
09F9FDF20205F100FEFE09FFF9FEFAFDECFDF802FDB7040102FDFC05FF07FEFEFEFD03EDFE04040AFE0E0DFFFFF3F51008FC24F4FE1003FCFD0006FF0200FFF8,
FE010001FF050000FF02FE0106FEFFFE05FF03FEFFFFFE01010202000000FEFD00040602FFFFFEFC00F9FC050201FEFE01FF0001FD06020005000002FD00FF02,
02020003080103000D03FD02060202000304050000040008FF0003020000FF01010502030102FB0100FD0003040302FD0700FA02FD080002030102000000FF04,
020600090BEC080009060000E2020101EEFBE407FFED04FAFC04FD080104FF05FFEFF3020000EAFD00F4FD01E7F7EF02FBFD050704F2FEFC000003FF03FEFFFB,
00000000FFFF000000FF0000000000000100FE00000100FF000100FF000000FF00FEFF0000FF01000001000001000002FF0001000100FF00FF00000000000001,
FFFF0000FFFF0000FF00FF00FEFF00000000FE000000FFFFFF01000000FF00FF01FF00000000FFFF0001FFFFFF010002FFFF0000FF00000000000200FF000000,
0202FF0200FCFEFF05060201FE07FEFFFB10FE02FEF9FA00040300FF0002FD01FFFFF501FEFEFDFFFFE60300FC11F9FAFA02F70202F90000FDFF010DFBFDFEFB,
0101000405FD020003000401020500000303090000FB040700030101000100030001FF000001020000FA0603FF0502FE0507F901060103FEFD00010502FFFE02,
0001000302000200010000010602FF00FF02080000010005FF02010100FD0000000200010002010000010003010002010401FE00000301FF000100020000FF02,
FEFFFE040205F800040309FF06FEFA0002AB1DFF00050403EEF7FA00000801FCFF07FC0400FEFFFDFFE5FEFE06FD00F60503ED0003FD000B0000020401FD0904,
00FE0001FE0201000001FE01FA0302000804E40201FBFEFBFCFCFEFF00FC000000F8FD0700FFEC00FF040402F2060D03FB0608010000FE01FFFFFB0101000202,
FFFFFFFEFB00FFFFF9FE00FFFC00FFFFFB00FEFF000001FCFEFB00FD00F900FB000000FBFFFF00FF00FAFFF9FBFF0200F9FE0001FFF8FDFF0100FEFEFF00FEFC,
FE0101050310040001FF0202FDFAFA010203E9FF01FF02FF0000000000FF000000FDFCFF00F9DCF4FF10FF020004FD07FDFE12000203FCFCFDFF00FB02000004,
E903FF0EFA050001F70105F8FB001102F9001BF400FFFEFAFE0401FB010200F8FE0A0300000201E601ECFFF80500FCF80AE9EF0DF8EF0B0000000001F900FF0B,
EA08FF0804FC0B01F503FCFAF30002FE0400F6FBFF03FEFB000504F10102FEF700FF04EDFF0201010106FEFAFF030905FE060CFAFCFE04FFF601FE0300FF0203,
0E04FFF202FCFB0003FFF90A04FEF3FF0802E903FFFB03010102FD0BFF00FE0C00F00006FEFEFD0BFF12FC02FFF8030AF30A11F40A08F9FC02FFFC02FF01FEF2,
01FFFF00FF07FF00FD02FD0112FD0800FF000F0601F6000302010101010001FEFF0806060001F0080003F70302FFF2FD00F6F503FB0AFE030A000201FF03FFFB,
FF0100FFE9FDFE00DD030102020409FEFF02F402FF07FEFC0002FDE9000100E7FFFB00FCFE04FD06012004E70D04100805011504F60A00FF06000302FFFF06FF,
FCFF01F6FC01FFFF0100FB01050300FF03FB05F90000FE00FA00020201FDFFFF01FE05F6FF030D0301F004F3FF0506FCFF0CF9F700010000010002FD00FF02FD,
02050001FE02050104FFFF01F501030103FFED020106FFFBFEFFFEFD00FFFFFF01FFFDFE00FFFF03FF0E00FEEA031B07F702120301F4FD04FF00FD00000104FC,
03000000FF02FF00FF01FD000800F8FF05000CF90000FF0103FF030600FD000400010306FF02000200F8FB000002FEFDFC01FCFB03FE01020300FF00FE00FFFF,
000AFE00FF00000101010000FEF401030001FFFFFF00FF010100FF00FFE3FF0001000100000002FF0009000000FE01150000FF0000FF0104FE0012FF02020701,
01FFFFFBFE02FD00FBFE04FF02FF0200FA03050500FCFEFFFE01FEFF0103FFFDFF03FEFC00FEFF0700F705FB01FBFDFEFEFEFBFFFFFDFD0000FF0002FE00FFFC,
0103FFFA0200F9FFF30502FD080208FEF5FFFFFE00E4FC08FD0300020002FFFFFE060305FF05FEFF01FF02FE0E04EBFC07F0F306FF11FA02030201FFFA01FF05,
0800FE04F002FE01F30203FDFCFE0A010702EE0800F8FFF0FEFE00000005000000FA060000020106000D04F5FBFFF40AFD030F0C0AF201FB04FF020600010005,
0401FFFB00FFFBFE02FE010503FBF6FE08FDF000FFFCFFFD0400FE0100FCFDFF00FAFC03FEFB0301FF00FC0202FC0006F50109FC0100FBFEFF00FCFEFC00FFFF,
EF000101FE00F90105040C00F302FFFF070109F3FFFEFC000401FF0000FFFE0100F002FF01050F0001080901FBFB0002FD0517F4FFFC0306F700FF02FF000503,
FBFA01FBF301FAFFFA02020109FDFF0004020EF600060209FFFB03FB01FF01F4010BFF06FFFF010001F201F8040002F90508EEFDF603F000000103000000FE07,
060500F5FC07F9000502FAF0D4FD01FEDBFE0FFC010BFCF5F700FD170007011FFE1B06F7FF0607F60014F7F3FE08F9FD13E813F80EEEEFFEFE010601FB000012,
0101FFFE00F4FF00FE04FC000D02FFFEFA040309FFF3FE04FF00000101FFFF0100020501FF01070701F8010506FBFF0003FEFAFD000902FFFE010001FDFFFF04,
00FF0100000000010100000101FC00010000FC0001FFFF0000010001000201010001000101000000000701010000FFFE01FF0500FF01FF02FF00FE00FF01FF00,
FF00000001FF000002FFFF00FDFFFE000001FBFE000200FF0100FFFF0000000100FEFF0100FFFEFE0004FE03FF010001FEFF03FF01FFFF00FF0000FF01000000,
0100FE01FF010002FE06010101F9010101FF10000001FC0209D20601010600010103050202FD040102FE020102FD01DF0301FE0002FF010AFE01F800FF02F402,
FAFEFEFBFEFBFDFEFEFEFDFC01FD01FDFE0106FDFDFEFF01F9FEFFFDFFFFFDFFFF04FEFBFDFC03FDFFF3FEFDFFFF02F90100F7FDFE0100F9FC000000FFFFFFFD,
FFDD03FC0708EE0207F00C020711F60301171A0203FE10F7EFE2FD0100E503030008FD0003FBFFF601E9FF0405140BF1F7F6F20003FBFEFB0700F7C606FF0104,
0007FEFC00FD060001FFF501F600FFFF03F7F3EA0005FBFD0207010F0007010C00060508FF0200FD0010F100020204070B000AF00600FC00FF0102F4FD00FE0D,
FF06FEF9460BECFFDF0A060601FA0001040401F500F0FF2500FCF4FF03040500FE0EE5F70000020600FA06B0F0FBF90B13F71004FD03F70107FCFD01FCFC00FF,
0FFA000900EF1200FA00F6FBFD030302FFF30AFC0005FDFFF3FF02FCFFF501FBFF0208FC0101F218FFF3FEF7FE16FFF60C07EFFE0501FDFFFCFFFBD604FE06FC,
04F7FEFDF911040002FAF40310FDFF01FAFEFB070104FE0105FE020D00020105000EF90701FBF1FE0001F9FC080703FF02F1F802FB05FFFFFB000508FF01F9FB,
F101FF000FFF08FF0C000304EDFDE9FF00F5EEF7000704060003020000FFFDFE00F206FBFF01F5E40012F50805070704FCFA0EF6F80CFCFD0201FEF401FFFDF9,
FD02FFF4F700F900FFFFFC070905FC000500050000F4FD030602FE0D0001000A01F9FD04FF0107FF00F702FA03F400FF0608F6F70200FBFF00FF0203FB00FCF8,
05FD00FFFF03010101020B0008020801FC04070A01FF010704FE000000000201000900000204040A00FB0901010300010504FD0503FF000403FF010800000000,
F9FF00FD01FEFC00FF01FCFF03000100FFFE0404FFFC0003FEFF00FE00FD00FE000400FE0000000200F903FEFEFC020001FEFBFCFE00FFFEFF0102FB0000FFFF,
FD050101F903F802010503FBF201000201010301000105040001FFFC000302FF0101FFFF010509F4000A09F8FD060303F5020E0BF7EB0504FC00020401000203,
FE04020501FD030202000500FDFFFF020801FCFE010109FE000101FF000201FD01FDFD0003FF00FD0005FE02FC01FF04FD01070303FE0002FF0000FE06FF0006,
FF01FE01FF01FE00FEFEFD00FFFFFFFFFEFF09FEFFFBFE00020400FD0102FFFC00FEFCFFFEFF03FD00F7FF0302FC01FBFDFFF4FE00FDFEFBFFFFFF01FFFFFF01,
FF00000000000000FF000000FF000000FF00000000000000FF0100FF0001000000FF00000000FFFF00FFFF0001FF0000FFFFFF000000FF000000FF0000000000,
05FCFEF4F701F4FFF4000100FBFFFDFEF8031001FFE5FE04F9FF030101FF00FEFE0D0201FFFF02FD01FFFDFE08FE00FC09FEF8FD040103010202FFFF00FFFF02,
0BFD000300F0FD01040310FEF9FD0502FF0E050701F903FDFEFFFFFD000102FA00FE04020304EC0200EF0D0501FE08FDFEFDF40B0504FA0504FE0309FF02FFFE,
FFFD04FE020008010BFF0F0206020502090303F402FC000CFCF9FFF300FC02F90104050C0100F70801ED0907EDFCF0F50908EF01EB06D10601FF0101FF01040D,
010000FFFF020000000001FF01FFFF0003FF03FE00010001FF00000100FF0000000000030000010000FF0002010201000101FFFF01010000FF0001FFFF000000,
06FEFEFB0BF9F600FE03040005FFFA00FEFF030500DC020AFDFEFEFD02FD00FAFF01FAFB0001020101F2FFEEFBFC0203FEFE06FB030101000200FE0200FFFFFF,
01FF0000FF000001000303FD01F1FEFF01041B0000FFFE06FAFF090102D900FE03020DFF00020500030601FF010202010204F4FE0000FFFAFE050F00FF02FF01,
000001FF06F202FFFC050103030309FEFFFD1206FF0AF905FC0204F902FCFFFA01FB08F0FF030C0002F009FDF20110FC0800FCFFF9020201FC0101FDFF0001FF,
EC01FF01FC00050002FF01FDFC060200FD000FF9FF040105030100F000FDFFF10004FEEA000105F800EF05F503FF02FE0603F9FCF5FA03FEFA0004FFFEFE0003,
00FA0302FCF60B02FF040505F1030B050900DCF903010107F9FC00FD00F6020001FB010B03FFEC04000802FDF60BEDFF0412FE04F903E7090101F9FF07010106,
FFFE00FF0206FE00FFFFFA01FDFDFF01FFFEFD0000FFFFF8FF03FE01000001FE00FCFDFF00FEF8FE000BFDFE00FFFA01FBFC02FFFFFEFFFFFD000104FE0003FB,
03FBFFF80106010004FDF8FE00FE0EFEFD0302F700FFFF01F8FE030001FF0001FF0C000400FEF60900F5E6F7FBFFFDF9F4F1F102FBFEFD0108FFFE030102FFF0,
000000FFFF00FF0000000000000000000000000000FF0000000000FF00000000000000000000000000FF00000000FFFF0000FF00FF0000000000000000000000,
FA020004FE030300FD0003FEF6010300FDFEFAFB0003FFF4010100FB00FB01FA000201FD010201F70005FEFF0202FE0100F60501FCFB0300020001FFFF010106,
FFFF00FFFDFCFD01030004FBFDF9FF010503010300FF050101F8FF0000FB00FE0000FDFE01F9FF02FF010100FD01FFFDFC00FF0100FEFEFAFBFFFD0F01FFFFFE,
FEFFFF0202010200FC03FEFF00FE00FFF7FD020100FC0101FE00010301FD0003000601FC0001FEFE01F302FAF9FF02FC04F8F6000206010000010300000001FD,
F1FE03F70010F8000401FC040A10F100000D1CF20106020A07FA02FA01FC01FE010BFA02FF060CF301EFEF0303F700FB0402F6F3EEFEF2060202090B00FF0402,
0105FFF50A02FAFF0BFEEAFF0AFC04FDF3F7FBFDFFF5FD09000401FA0107FDF90000FDFBFEFC011101F8050C010507FD04FFF1F9F805F5FC00030100FC00FC05,
0000000100010100000000000000000000000001000100000000000000FF00000001000000000000000100FF00000101FF000100000000000000000000000000,
040300FB07F301000800EB02FB04F2FFFAFEFDFF0104010101010004000300FF00FB02FC0004FFFC0012FA020002000503F60EF60103F802030000FD04000200,
01FFFF01FA040000F7FEFEFCFEFEFE02FE03FC0100FEFFF7FF00FDF7000302F7FEFFFDF900000300FF0500F0FAFFFD02FEF90203FCFBFFFEFEFF0100FE0000FC,
FDFF020400FBF002020410FFF600FD020A00F5FF02FC07F104FFFBFCFE0202FE01E5F70303090DF502090B090802EF03120600F406080102FB04010104020012,
F1FBFFFEFD04FEFF00FDFFFE09FDEE00070211F5FF020103F9FEFE0600FF0003FEFFFB0500FB01F600F6E90101FDFEFA0201F5EBFDFF01FFFE00FCFEFFFFFF00,
0302FF00F307FC0004FEF8010002F40103FFFDFE00FE02FF0304FF040000FF01FFFE0104FEFEFD05FE16FAEAF6FF0C01E2FF0DF902E502FD04FE03FE030003F7,
FFFB0004010B00FEFB02F601040205FDF30017FAFFF20101FCFF04FB03FF00F900FC02FEFF02F9020202FD010F02F5FB01F9E805FE00FE02010102FD0200FF03,
FFDD0105FEFF03FF05E6FBFEFA160100FCFF06FE0000F808F40EEF06FC20FF02FC010302FF1D0104FAEC01FEF70201ECFA04FE00FE0201EE11F703FFF7FD00FD,
FC03FEF9010CFCFFFE00F3FFF6FEF4FF02FEFCF6FF09FE04F90303FD0002FD0200FF04FEFFFDECF9FF15F001FCF90704F9050F00FB07FEFEFBFF01FB01FE00EF,
F00001FBFDF2FD0004FEE201FA010401FB03040101030101FCFD03FF02FDFFFC01FCFFF800FF000601FBF203040107FE02FDF9F7F505FD02FE02FF00FF01FEFF,
FFEE030105FF00FD01F3FB06FF0505FEFEFEEC0403FE00FEDCF6F202FC030302FD04F801FF060001FB07FDFD00E100FF0301120100FF02FFFDFCF30102FE0403,
0303FF02010A02FFF904F6FD010005FEF4FD07FCFFFEFFFCFA0402FF010200FDFE0D0302FE0303FE00FB01FC050104FB0AFCF401FF000203050105FEFFFF0108,
1103FF0106F902000100FE0017FB0900FE02DA02010206FAFBFFFF07FF0302FEFF0CFA0B00FAF004FFFBF103F9F9FB01FFF2000CFF0805000800FA00020200FE,
0500FFFF05030300FFFDF9FD05FC01FEFFFE0702FF020001FE0000030102FF03FF070201FFFDFB070000FFFDFBFF02FEFF01FE02000102FD04FFFFFBFEFF02FB,
FA03FFFAFFFEFF000100FDFFF803FCFF02FE00F9FF0402FFFE00FF0100FFFF000001FE03FF0102F80007F9FFFEFFFF01FEFB0AF7FE010100FE0000FE020001FC,
02F9FCFCFA08F6FFF3FDECFCF1F1F6FDF104000DFC06F7F7F902FF0C0001FD06FEFD06F2FCFE0DF6FF1BF3EF13030E03FAF217FA18FA1EFC04FEFB02FC00FEF8,
000303FA0004FF05FCFE020006FD000800FD02FC03030B01FCF900FF010003FF01FFFD0106FF0202010BFEFD0203FFFE0303FCFBFE02FF09FE0103FF0501FFFF,
FF0000FEFFFEFF00FF00FE00FF00FE00FEFFFFFE00FF00FFFF0001FF00FF00FF00FF00FF0000FFFF00FFFFFF00FFFD0000FFFEFFFF00FF000000FF00000000FF,
00020001FF01FE00FFFEFFFF02FD010000FDFEFE00FC01FB01FFFE020000FF0000FDFE0100FF010100FFFFFF0303FC0200FC0200FF0000FE0100FE00FFFF0001,
FDFE0007E1F70001E90402FFFC040B0108080CF900FE03FFFEFEFD0B00FC030BFF0CFD1401FCF6FF00E5FCE6FF02FEF40A08E90706FBF10500FE000702FEFF14,
00FE0000000101010001FF0104020202FC040C0201FE00070302000200020102000302FE0102020201F800FD010103FD0801F9FF01FF010101000402000100FE,
0AFF00FDFA0A0000FA02FFFE0000FDFEFEFF10FD00FEFD00FBFD02FD01FF0104FF0403FDFF03FD0101F201F9EE000DFB0102F6FF06F90204030103FF010000F1,
03FF000100E400010303FAFE0106020101FA17FFFFFE0002FCFE01FE01FE0100010304FF0002110102EB0000FD02FFF90304F401FBFDFE01FE01040102000302,
F3FD01FD01FA0101F9FFFD0209FEFC0004020DFE01010004FBFF03FB01FE010000FE06EE0103070001F600F1F50206FFFE06FBFCFF030001FA0001FF04FF01F3,
FC06FF03F6FE0AFEFFF6FD05FD08FAFF0505FAFF000AF6090E0806F80001FCF9FFF608F9FF000506FF140100F8F31406EE0E06FF01F8FF02F4FD01FFFDFF00F2,
FE010000FDFC0000FD01FF010301FF00FD03040000FB00FE010001FE00FF00FE00FE02FF000002FF01FA000003FEF8FC02FBF8FEFFFFFF0102010002010101FF,
000300FF0803FBFF04FD0701F6FE0100F6FFF0FD00F500FE0101FE050003FE01FFFDFCFEFFFD01F9FF000203FBFE010300F60901020703FFFF01FF00FEFF0201,
F1FF01F5FCF4F800FAFCEF0001040500FF04FF0E0008010C010001FA010000FF0307FEF800FEF70201F6020DFBFA050006FDF3F70208FC03F70100FF02FE05F6,
0202FF000005FB00FC02F8FF08FDF9FF0DFEF1FAFFF002F8FCFE01FD01FF00FA00F90207FE01010500FFF8EF01010305EE0308FFF8FE04FF0300FFFB040002F3,
00CEFAF8F802FFFDFEEDFCFEF8D701F4FA09E4FAF40EEF0981ADF404FE9DF500F9060E00FA0A090DFCFE0BFD020E010804FE15FAFD07040016018310FF090304,
FB04FFF2F1FCED00FB04F701FB00F1FF0DFFEEF7FFF8FFFC00FE01030105FF0600EE0306FF010208000EFAF900FF0606ED070EE801040500FF00FF00FF0000EC,
13FFFDFC06041600FEFFF9020C0008FF0004FA06FF0EFE030200FDFF000400FDFF15F405FF0003FD0003EFF10301FF0605F6FA1CF9FBFCF8F801F8000300FBE7,
03060006FE0003FF01FE03FE04FB07FE07FB02FEFF0601F60205FB010006FE01FF02FE0000FB0200FFFF0602FBFEFA0205FF00050106FFFE00FF02FBFFFD0003,
060501FBF6FEFB010BFA01FCEF020004FEFDFA04020E0602FF0403FF000302FE000EFD0202FCFF04FE1100FAF8000DFFEF01FF0209E0FA05F9FD010005FF050A,
0000000000FF00000000000000000000FF0001000000000000000000000000FF000000000000000000FF0000000000FF0000FF00FF0000000000FF00FF000000,
FF0100FF0000000000000301FF00FE010101FDFE00010001000000FF000100FF00FF00FF000000FE0006FEFF03FF020200FF03FF0301FF010000000202000001,
000000FF030101000100FE000000FF00FFFF00000000000000000001000000000001FF010000FE010000000201FF01FF00FFFD0000010100FF000100000000FF,
E2FAFE1F04FF0AFEFAFCF00815EE0FFD1905F60D01E4F809030900E6FF01FBDDFFD1090DFD0000F5FE1500FB03FC1203E50C1025DE11140005FCFC04F9FFFBE9,
010304FE01FF0003FEFEFC02FCFB0201FEFBF7FF0400FFFF0FBC0101000302000200020101020202010A00FFFF0201FD000012FFFE0201FE00FFF0FE0103FBFF,
05FDFF040101FCFF030008FE01FDFBFC0CFAF800FD05F206FC01FFFE0003FDFBFF040B06FB02FF0201FB02090103FC00F7040103080601FE0A00FDFAF1000109,
00000000000000000000000000000000000000000000000000000000000000000000000000000000000000000000000000000000000000000000000000000000,
00000000000000000000000000000000000000000000000000000000000000000000000000000000000000000000000000000000000000000000000000000000,
00000000000000000000000000000000000000000000000000000000000000000000000000000000000000000000000000000000000000000000000000000000,
00000000000000000000000000000000000000000000000000000000000000000000000000000000000000000000000000000000000000000000000000000000,
00000000000000000000000000000000000000000000000000000000000000000000000000000000000000000000000000000000000000000000000000000000,
00000000000000000000000000000000000000000000000000000000000000000000000000000000000000000000000000000000000000000000000000000000,
00000000000000000000000000000000000000000000000000000000000000000000000000000000000000000000000000000000000000000000000000000000,
00000000000000000000000000000000000000000000000000000000000000000000000000000000000000000000000000000000000000000000000000000000,
00000000000000000000000000000000000000000000000000000000000000000000000000000000000000000000000000000000000000000000000000000000,
00000000000000000000000000000000000000000000000000000000000000000000000000000000000000000000000000000000000000000000000000000000,
00000000000000000000000000000000000000000000000000000000000000000000000000000000000000000000000000000000000000000000000000000000,
00000000000000000000000000000000000000000000000000000000000000000000000000000000000000000000000000000000000000000000000000000000,
00000000000000000000000000000000000000000000000000000000000000000000000000000000000000000000000000000000000000000000000000000000,
00000000000000000000000000000000000000000000000000000000000000000000000000000000000000000000000000000000000000000000000000000000,
00000000000000000000000000000000000000000000000000000000000000000000000000000000000000000000000000000000000000000000000000000000,
00000000000000000000000000000000000000000000000000000000000000000000000000000000000000000000000000000000000000000000000000000000,
00000000000000000000000000000000000000000000000000000000000000000000000000000000000000000000000000000000000000000000000000000000,
00000000000000000000000000000000000000000000000000000000000000000000000000000000000000000000000000000000000000000000000000000000,
00000000000000000000000000000000000000000000000000000000000000000000000000000000000000000000000000000000000000000000000000000000,
00000000000000000000000000000000000000000000000000000000000000000000000000000000000000000000000000000000000000000000000000000000,
00000000000000000000000000000000000000000000000000000000000000000000000000000000000000000000000000000000000000000000000000000000,
00000000000000000000000000000000000000000000000000000000000000000000000000000000000000000000000000000000000000000000000000000000,
00000000000000000000000000000000000000000000000000000000000000000000000000000000000000000000000000000000000000000000000000000000,
00000000000000000000000000000000000000000000000000000000000000000000000000000000000000000000000000000000000000000000000000000000,
00000000000000000000000000000000000000000000000000000000000000000000000000000000000000000000000000000000000000000000000000000000,
00000000000000000000000000000000000000000000000000000000000000000000000000000000000000000000000000000000000000000000000000000000,
00000000000000000000000000000000000000000000000000000000000000000000000000000000000000000000000000000000000000000000000000000000,
00000000000000000000000000000000000000000000000000000000000000000000000000000000000000000000000000000000000000000000000000000000,
00000000000000000000000000000000000000000000000000000000000000000000000000000000000000000000000000000000000000000000000000000000,
00000000000000000000000000000000000000000000000000000000000000000000000000000000000000000000000000000000000000000000000000000000,
00000000000000000000000000000000000000000000000000000000000000000000000000000000000000000000000000000000000000000000000000000000,
00000000000000000000000000000000000000000000000000000000000000000000000000000000000000000000000000000000000000000000000000000000,
00000000000000000000000000000000000000000000000000000000000000000000000000000000000000000000000000000000000000000000000000000000,
00000000000000000000000000000000000000000000000000000000000000000000000000000000000000000000000000000000000000000000000000000000,
00000000000000000000000000000000000000000000000000000000000000000000000000000000000000000000000000000000000000000000000000000000,
00000000000000000000000000000000000000000000000000000000000000000000000000000000000000000000000000000000000000000000000000000000,
00000000000000000000000000000000000000000000000000000000000000000000000000000000000000000000000000000000000000000000000000000000,
00000000000000000000000000000000000000000000000000000000000000000000000000000000000000000000000000000000000000000000000000000000,
00000000000000000000000000000000000000000000000000000000000000000000000000000000000000000000000000000000000000000000000000000000,
00000000000000000000000000000000000000000000000000000000000000000000000000000000000000000000000000000000000000000000000000000000,
00000000000000000000000000000000000000000000000000000000000000000000000000000000000000000000000000000000000000000000000000000000,
00000000000000000000000000000000000000000000000000000000000000000000000000000000000000000000000000000000000000000000000000000000,
00000000000000000000000000000000000000000000000000000000000000000000000000000000000000000000000000000000000000000000000000000000,
00000000000000000000000000000000000000000000000000000000000000000000000000000000000000000000000000000000000000000000000000000000,
00000000000000000000000000000000000000000000000000000000000000000000000000000000000000000000000000000000000000000000000000000000,
00000000000000000000000000000000000000000000000000000000000000000000000000000000000000000000000000000000000000000000000000000000,
00000000000000000000000000000000000000000000000000000000000000000000000000000000000000000000000000000000000000000000000000000000,
00000000000000000000000000000000000000000000000000000000000000000000000000000000000000000000000000000000000000000000000000000000,
00000000000000000000000000000000000000000000000000000000000000000000000000000000000000000000000000000000000000000000000000000000,
00000000000000000000000000000000000000000000000000000000000000000000000000000000000000000000000000000000000000000000000000000000,
00000000000000000000000000000000000000000000000000000000000000000000000000000000000000000000000000000000000000000000000000000000,
00000000000000000000000000000000000000000000000000000000000000000000000000000000000000000000000000000000000000000000000000000000,
00000000000000000000000000000000000000000000000000000000000000000000000000000000000000000000000000000000000000000000000000000000,
00000000000000000000000000000000000000000000000000000000000000000000000000000000000000000000000000000000000000000000000000000000,
00000000000000000000000000000000000000000000000000000000000000000000000000000000000000000000000000000000000000000000000000000000,
00000000000000000000000000000000000000000000000000000000000000000000000000000000000000000000000000000000000000000000000000000000,
00000000000000000000000000000000000000000000000000000000000000000000000000000000000000000000000000000000000000000000000000000000,
00000000000000000000000000000000000000000000000000000000000000000000000000000000000000000000000000000000000000000000000000000000,
00000000000000000000000000000000000000000000000000000000000000000000000000000000000000000000000000000000000000000000000000000000,
00000000000000000000000000000000000000000000000000000000000000000000000000000000000000000000000000000000000000000000000000000000,
00000000000000000000000000000000000000000000000000000000000000000000000000000000000000000000000000000000000000000000000000000000,
00000000000000000000000000000000000000000000000000000000000000000000000000000000000000000000000000000000000000000000000000000000,
00000000000000000000000000000000000000000000000000000000000000000000000000000000000000000000000000000000000000000000000000000000,
00000000000000000000000000000000000000000000000000000000000000000000000000000000000000000000000000000000000000000000000000000000,
00000000000000000000000000000000000000000000000000000000000000000000000000000000000000000000000000000000000000000000000000000000,
00000000000000000000000000000000000000000000000000000000000000000000000000000000000000000000000000000000000000000000000000000000,
00000000000000000000000000000000000000000000000000000000000000000000000000000000000000000000000000000000000000000000000000000000,
00000000000000000000000000000000000000000000000000000000000000000000000000000000000000000000000000000000000000000000000000000000,
00000000000000000000000000000000000000000000000000000000000000000000000000000000000000000000000000000000000000000000000000000000,
00000000000000000000000000000000000000000000000000000000000000000000000000000000000000000000000000000000000000000000000000000000,
00000000000000000000000000000000000000000000000000000000000000000000000000000000000000000000000000000000000000000000000000000000,
00000000000000000000000000000000000000000000000000000000000000000000000000000000000000000000000000000000000000000000000000000000,
00000000000000000000000000000000000000000000000000000000000000000000000000000000000000000000000000000000000000000000000000000000,
00000000000000000000000000000000000000000000000000000000000000000000000000000000000000000000000000000000000000000000000000000000,
00000000000000000000000000000000000000000000000000000000000000000000000000000000000000000000000000000000000000000000000000000000,
00000000000000000000000000000000000000000000000000000000000000000000000000000000000000000000000000000000000000000000000000000000,
00000000000000000000000000000000000000000000000000000000000000000000000000000000000000000000000000000000000000000000000000000000,
00000000000000000000000000000000000000000000000000000000000000000000000000000000000000000000000000000000000000000000000000000000,
00000000000000000000000000000000000000000000000000000000000000000000000000000000000000000000000000000000000000000000000000000000,
00000000000000000000000000000000000000000000000000000000000000000000000000000000000000000000000000000000000000000000000000000000,
00000000000000000000000000000000000000000000000000000000000000000000000000000000000000000000000000000000000000000000000000000000,
00000000000000000000000000000000000000000000000000000000000000000000000000000000000000000000000000000000000000000000000000000000,
00000000000000000000000000000000000000000000000000000000000000000000000000000000000000000000000000000000000000000000000000000000,
00000000000000000000000000000000000000000000000000000000000000000000000000000000000000000000000000000000000000000000000000000000,
00000000000000000000000000000000000000000000000000000000000000000000000000000000000000000000000000000000000000000000000000000000,
00000000000000000000000000000000000000000000000000000000000000000000000000000000000000000000000000000000000000000000000000000000,
00000000000000000000000000000000000000000000000000000000000000000000000000000000000000000000000000000000000000000000000000000000,
00000000000000000000000000000000000000000000000000000000000000000000000000000000000000000000000000000000000000000000000000000000,
00000000000000000000000000000000000000000000000000000000000000000000000000000000000000000000000000000000000000000000000000000000,
00000000000000000000000000000000000000000000000000000000000000000000000000000000000000000000000000000000000000000000000000000000,
00000000000000000000000000000000000000000000000000000000000000000000000000000000000000000000000000000000000000000000000000000000,
00000000000000000000000000000000000000000000000000000000000000000000000000000000000000000000000000000000000000000000000000000000,
00000000000000000000000000000000000000000000000000000000000000000000000000000000000000000000000000000000000000000000000000000000,
00000000000000000000000000000000000000000000000000000000000000000000000000000000000000000000000000000000000000000000000000000000,
00000000000000000000000000000000000000000000000000000000000000000000000000000000000000000000000000000000000000000000000000000000,
00000000000000000000000000000000000000000000000000000000000000000000000000000000000000000000000000000000000000000000000000000000,
00000000000000000000000000000000000000000000000000000000000000000000000000000000000000000000000000000000000000000000000000000000,
00000000000000000000000000000000000000000000000000000000000000000000000000000000000000000000000000000000000000000000000000000000,
00000000000000000000000000000000000000000000000000000000000000000000000000000000000000000000000000000000000000000000000000000000,
00000000000000000000000000000000000000000000000000000000000000000000000000000000000000000000000000000000000000000000000000000000,
00000000000000000000000000000000000000000000000000000000000000000000000000000000000000000000000000000000000000000000000000000000,
00000000000000000000000000000000000000000000000000000000000000000000000000000000000000000000000000000000000000000000000000000000,
00000000000000000000000000000000000000000000000000000000000000000000000000000000000000000000000000000000000000000000000000000000,
00000000000000000000000000000000000000000000000000000000000000000000000000000000000000000000000000000000000000000000000000000000,
00000000000000000000000000000000000000000000000000000000000000000000000000000000000000000000000000000000000000000000000000000000,
00000000000000000000000000000000000000000000000000000000000000000000000000000000000000000000000000000000000000000000000000000000,
00000000000000000000000000000000000000000000000000000000000000000000000000000000000000000000000000000000000000000000000000000000,
00000000000000000000000000000000000000000000000000000000000000000000000000000000000000000000000000000000000000000000000000000000,
00000000000000000000000000000000000000000000000000000000000000000000000000000000000000000000000000000000000000000000000000000000,
00000000000000000000000000000000000000000000000000000000000000000000000000000000000000000000000000000000000000000000000000000000,
00000000000000000000000000000000000000000000000000000000000000000000000000000000000000000000000000000000000000000000000000000000,
00000000000000000000000000000000000000000000000000000000000000000000000000000000000000000000000000000000000000000000000000000000,
00000000000000000000000000000000000000000000000000000000000000000000000000000000000000000000000000000000000000000000000000000000,
00000000000000000000000000000000000000000000000000000000000000000000000000000000000000000000000000000000000000000000000000000000,
00000000000000000000000000000000000000000000000000000000000000000000000000000000000000000000000000000000000000000000000000000000,
00000000000000000000000000000000000000000000000000000000000000000000000000000000000000000000000000000000000000000000000000000000,
00000000000000000000000000000000000000000000000000000000000000000000000000000000000000000000000000000000000000000000000000000000,
00000000000000000000000000000000000000000000000000000000000000000000000000000000000000000000000000000000000000000000000000000000,
00000000000000000000000000000000000000000000000000000000000000000000000000000000000000000000000000000000000000000000000000000000,
00000000000000000000000000000000000000000000000000000000000000000000000000000000000000000000000000000000000000000000000000000000,
00000000000000000000000000000000000000000000000000000000000000000000000000000000000000000000000000000000000000000000000000000000,
00000000000000000000000000000000000000000000000000000000000000000000000000000000000000000000000000000000000000000000000000000000,
00000000000000000000000000000000000000000000000000000000000000000000000000000000000000000000000000000000000000000000000000000000,
00000000000000000000000000000000000000000000000000000000000000000000000000000000000000000000000000000000000000000000000000000000,
00000000000000000000000000000000000000000000000000000000000000000000000000000000000000000000000000000000000000000000000000000000,
00000000000000000000000000000000000000000000000000000000000000000000000000000000000000000000000000000000000000000000000000000000,
00000000000000000000000000000000000000000000000000000000000000000000000000000000000000000000000000000000000000000000000000000000,
00000000000000000000000000000000000000000000000000000000000000000000000000000000000000000000000000000000000000000000000000000000,
00000000000000000000000000000000000000000000000000000000000000000000000000000000000000000000000000000000000000000000000000000000,
00000000000000000000000000000000000000000000000000000000000000000000000000000000000000000000000000000000000000000000000000000000,
00000000000000000000000000000000000000000000000000000000000000000000000000000000000000000000000000000000000000000000000000000000,
00000000000000000000000000000000000000000000000000000000000000000000000000000000000000000000000000000000000000000000000000000000,
00000000000000000000000000000000000000000000000000000000000000000000000000000000000000000000000000000000000000000000000000000000,
00000000000000000000000000000000000000000000000000000000000000000000000000000000000000000000000000000000000000000000000000000000,
00000000000000000000000000000000000000000000000000000000000000000000000000000000000000000000000000000000000000000000000000000000,
00000000000000000000000000000000000000000000000000000000000000000000000000000000000000000000000000000000000000000000000000000000,
00000000000000000000000000000000000000000000000000000000000000000000000000000000000000000000000000000000000000000000000000000000,
00000000000000000000000000000000000000000000000000000000000000000000000000000000000000000000000000000000000000000000000000000000,
00000000000000000000000000000000000000000000000000000000000000000000000000000000000000000000000000000000000000000000000000000000,
00000000000000000000000000000000000000000000000000000000000000000000000000000000000000000000000000000000000000000000000000000000,
00000000000000000000000000000000000000000000000000000000000000000000000000000000000000000000000000000000000000000000000000000000,
00000000000000000000000000000000000000000000000000000000000000000000000000000000000000000000000000000000000000000000000000000000,
00000000000000000000000000000000000000000000000000000000000000000000000000000000000000000000000000000000000000000000000000000000,
00000000000000000000000000000000000000000000000000000000000000000000000000000000000000000000000000000000000000000000000000000000,
00000000000000000000000000000000000000000000000000000000000000000000000000000000000000000000000000000000000000000000000000000000,
00000000000000000000000000000000000000000000000000000000000000000000000000000000000000000000000000000000000000000000000000000000,
00000000000000000000000000000000000000000000000000000000000000000000000000000000000000000000000000000000000000000000000000000000,
00000000000000000000000000000000000000000000000000000000000000000000000000000000000000000000000000000000000000000000000000000000,
00000000000000000000000000000000000000000000000000000000000000000000000000000000000000000000000000000000000000000000000000000000,
00000000000000000000000000000000000000000000000000000000000000000000000000000000000000000000000000000000000000000000000000000000,
00000000000000000000000000000000000000000000000000000000000000000000000000000000000000000000000000000000000000000000000000000000,
00000000000000000000000000000000000000000000000000000000000000000000000000000000000000000000000000000000000000000000000000000000,
00000000000000000000000000000000000000000000000000000000000000000000000000000000000000000000000000000000000000000000000000000000,
00000000000000000000000000000000000000000000000000000000000000000000000000000000000000000000000000000000000000000000000000000000,
00000000000000000000000000000000000000000000000000000000000000000000000000000000000000000000000000000000000000000000000000000000,
00000000000000000000000000000000000000000000000000000000000000000000000000000000000000000000000000000000000000000000000000000000,
00000000000000000000000000000000000000000000000000000000000000000000000000000000000000000000000000000000000000000000000000000000,
00000000000000000000000000000000000000000000000000000000000000000000000000000000000000000000000000000000000000000000000000000000,
00000000000000000000000000000000000000000000000000000000000000000000000000000000000000000000000000000000000000000000000000000000,
00000000000000000000000000000000000000000000000000000000000000000000000000000000000000000000000000000000000000000000000000000000,
00000000000000000000000000000000000000000000000000000000000000000000000000000000000000000000000000000000000000000000000000000000,
00000000000000000000000000000000000000000000000000000000000000000000000000000000000000000000000000000000000000000000000000000000,
00000000000000000000000000000000000000000000000000000000000000000000000000000000000000000000000000000000000000000000000000000000,
00000000000000000000000000000000000000000000000000000000000000000000000000000000000000000000000000000000000000000000000000000000,
00000000000000000000000000000000000000000000000000000000000000000000000000000000000000000000000000000000000000000000000000000000,
00000000000000000000000000000000000000000000000000000000000000000000000000000000000000000000000000000000000000000000000000000000,
00000000000000000000000000000000000000000000000000000000000000000000000000000000000000000000000000000000000000000000000000000000,
00000000000000000000000000000000000000000000000000000000000000000000000000000000000000000000000000000000000000000000000000000000,
00000000000000000000000000000000000000000000000000000000000000000000000000000000000000000000000000000000000000000000000000000000,
00000000000000000000000000000000000000000000000000000000000000000000000000000000000000000000000000000000000000000000000000000000,
00000000000000000000000000000000000000000000000000000000000000000000000000000000000000000000000000000000000000000000000000000000,
00000000000000000000000000000000000000000000000000000000000000000000000000000000000000000000000000000000000000000000000000000000,
00000000000000000000000000000000000000000000000000000000000000000000000000000000000000000000000000000000000000000000000000000000,
00000000000000000000000000000000000000000000000000000000000000000000000000000000000000000000000000000000000000000000000000000000,
00000000000000000000000000000000000000000000000000000000000000000000000000000000000000000000000000000000000000000000000000000000,
00000000000000000000000000000000000000000000000000000000000000000000000000000000000000000000000000000000000000000000000000000000,
00000000000000000000000000000000000000000000000000000000000000000000000000000000000000000000000000000000000000000000000000000000,
00000000000000000000000000000000000000000000000000000000000000000000000000000000000000000000000000000000000000000000000000000000,
00000000000000000000000000000000000000000000000000000000000000000000000000000000000000000000000000000000000000000000000000000000,
00000000000000000000000000000000000000000000000000000000000000000000000000000000000000000000000000000000000000000000000000000000,
00000000000000000000000000000000000000000000000000000000000000000000000000000000000000000000000000000000000000000000000000000000,
00000000000000000000000000000000000000000000000000000000000000000000000000000000000000000000000000000000000000000000000000000000,
00000000000000000000000000000000000000000000000000000000000000000000000000000000000000000000000000000000000000000000000000000000,
00000000000000000000000000000000000000000000000000000000000000000000000000000000000000000000000000000000000000000000000000000000,
00000000000000000000000000000000000000000000000000000000000000000000000000000000000000000000000000000000000000000000000000000000,
00000000000000000000000000000000000000000000000000000000000000000000000000000000000000000000000000000000000000000000000000000000,
00000000000000000000000000000000000000000000000000000000000000000000000000000000000000000000000000000000000000000000000000000000,
00000000000000000000000000000000000000000000000000000000000000000000000000000000000000000000000000000000000000000000000000000000,
00000000000000000000000000000000000000000000000000000000000000000000000000000000000000000000000000000000000000000000000000000000,
00000000000000000000000000000000000000000000000000000000000000000000000000000000000000000000000000000000000000000000000000000000,
00000000000000000000000000000000000000000000000000000000000000000000000000000000000000000000000000000000000000000000000000000000,
00000000000000000000000000000000000000000000000000000000000000000000000000000000000000000000000000000000000000000000000000000000,
00000000000000000000000000000000000000000000000000000000000000000000000000000000000000000000000000000000000000000000000000000000,
00000000000000000000000000000000000000000000000000000000000000000000000000000000000000000000000000000000000000000000000000000000,
00000000000000000000000000000000000000000000000000000000000000000000000000000000000000000000000000000000000000000000000000000000,
00000000000000000000000000000000000000000000000000000000000000000000000000000000000000000000000000000000000000000000000000000000,
00000000000000000000000000000000000000000000000000000000000000000000000000000000000000000000000000000000000000000000000000000000,
00000000000000000000000000000000000000000000000000000000000000000000000000000000000000000000000000000000000000000000000000000000,
00000000000000000000000000000000000000000000000000000000000000000000000000000000000000000000000000000000000000000000000000000000,
00000000000000000000000000000000000000000000000000000000000000000000000000000000000000000000000000000000000000000000000000000000,
00000000000000000000000000000000000000000000000000000000000000000000000000000000000000000000000000000000000000000000000000000000,
00000000000000000000000000000000000000000000000000000000000000000000000000000000000000000000000000000000000000000000000000000000,
00000000000000000000000000000000000000000000000000000000000000000000000000000000000000000000000000000000000000000000000000000000,
00000000000000000000000000000000000000000000000000000000000000000000000000000000000000000000000000000000000000000000000000000000,
00000000000000000000000000000000000000000000000000000000000000000000000000000000000000000000000000000000000000000000000000000000,
00000000000000000000000000000000000000000000000000000000000000000000000000000000000000000000000000000000000000000000000000000000,
00000000000000000000000000000000000000000000000000000000000000000000000000000000000000000000000000000000000000000000000000000000,
00000000000000000000000000000000000000000000000000000000000000000000000000000000000000000000000000000000000000000000000000000000,
00000000000000000000000000000000000000000000000000000000000000000000000000000000000000000000000000000000000000000000000000000000,
00000000000000000000000000000000000000000000000000000000000000000000000000000000000000000000000000000000000000000000000000000000,
00000000000000000000000000000000000000000000000000000000000000000000000000000000000000000000000000000000000000000000000000000000,
00000000000000000000000000000000000000000000000000000000000000000000000000000000000000000000000000000000000000000000000000000000,
00000000000000000000000000000000000000000000000000000000000000000000000000000000000000000000000000000000000000000000000000000000,
00000000000000000000000000000000000000000000000000000000000000000000000000000000000000000000000000000000000000000000000000000000,
00000000000000000000000000000000000000000000000000000000000000000000000000000000000000000000000000000000000000000000000000000000,
00000000000000000000000000000000000000000000000000000000000000000000000000000000000000000000000000000000000000000000000000000000,
00000000000000000000000000000000000000000000000000000000000000000000000000000000000000000000000000000000000000000000000000000000,
00000000000000000000000000000000000000000000000000000000000000000000000000000000000000000000000000000000000000000000000000000000,
00000000000000000000000000000000000000000000000000000000000000000000000000000000000000000000000000000000000000000000000000000000,
00000000000000000000000000000000000000000000000000000000000000000000000000000000000000000000000000000000000000000000000000000000,
00000000000000000000000000000000000000000000000000000000000000000000000000000000000000000000000000000000000000000000000000000000,
00000000000000000000000000000000000000000000000000000000000000000000000000000000000000000000000000000000000000000000000000000000,
00000000000000000000000000000000000000000000000000000000000000000000000000000000000000000000000000000000000000000000000000000000,
00000000000000000000000000000000000000000000000000000000000000000000000000000000000000000000000000000000000000000000000000000000,
00000000000000000000000000000000000000000000000000000000000000000000000000000000000000000000000000000000000000000000000000000000,
00000000000000000000000000000000000000000000000000000000000000000000000000000000000000000000000000000000000000000000000000000000,
00000000000000000000000000000000000000000000000000000000000000000000000000000000000000000000000000000000000000000000000000000000,
00000000000000000000000000000000000000000000000000000000000000000000000000000000000000000000000000000000000000000000000000000000,
00000000000000000000000000000000000000000000000000000000000000000000000000000000000000000000000000000000000000000000000000000000,
00000000000000000000000000000000000000000000000000000000000000000000000000000000000000000000000000000000000000000000000000000000,
00000000000000000000000000000000000000000000000000000000000000000000000000000000000000000000000000000000000000000000000000000000,
00000000000000000000000000000000000000000000000000000000000000000000000000000000000000000000000000000000000000000000000000000000,
00000000000000000000000000000000000000000000000000000000000000000000000000000000000000000000000000000000000000000000000000000000,
00000000000000000000000000000000000000000000000000000000000000000000000000000000000000000000000000000000000000000000000000000000,
00000000000000000000000000000000000000000000000000000000000000000000000000000000000000000000000000000000000000000000000000000000,
00000000000000000000000000000000000000000000000000000000000000000000000000000000000000000000000000000000000000000000000000000000,
00000000000000000000000000000000000000000000000000000000000000000000000000000000000000000000000000000000000000000000000000000000,
00000000000000000000000000000000000000000000000000000000000000000000000000000000000000000000000000000000000000000000000000000000,
00000000000000000000000000000000000000000000000000000000000000000000000000000000000000000000000000000000000000000000000000000000,
00000000000000000000000000000000000000000000000000000000000000000000000000000000000000000000000000000000000000000000000000000000,
00000000000000000000000000000000000000000000000000000000000000000000000000000000000000000000000000000000000000000000000000000000,
00000000000000000000000000000000000000000000000000000000000000000000000000000000000000000000000000000000000000000000000000000000,
00000000000000000000000000000000000000000000000000000000000000000000000000000000000000000000000000000000000000000000000000000000,
00000000000000000000000000000000000000000000000000000000000000000000000000000000000000000000000000000000000000000000000000000000,
025A0DD60B97072D03BB0AA1052A05860203075F0459F968FE4E09E30439016701CC04D2FC310810FF25FFF6F993F6610369FCEFFCD8088203280925FA11FFAC,
042302C00321129C0EE6F6F8F9DE03AEFF191160FF8400DEF77BFB5615FCFDBE0DA206E0016DFDFA0A940B0C016E0BB00179FDCE0B58F23006F4FE8AFB5A0E3A,
0689FE9E076001050735FE91023C072A097002DB0373F61E0B140066FDAD047508750D300B09F917FD1200BD0483FE2D0437F75703CF06B6FF22041803580110,
01261280012FFE82F1B6045503CE022401130180FF9E0A31045CFFDCFD9209A008140B46FEFBFB4F054CFA3C0189046314710298055AFEAF000808D90541FB72,
F8790A26007AFF5A1AD5F688FE790242039F06D5F540F6CFEC81027F24F71121F6CAFFD40921FF4705BD0C090AD70BB31929FEC1FB9F0BC60EC400930145079C,
0C05F980086BF6D4FE4411E00F6A04A9FF51FD48FE12FBAD0648FC8C0A8B01DF04DA05F20087FE7F01370971FF47F9D201B407F90B6E019B10390A330BB1F6F9,
FFDF04D3053B0BD203BB0C8AFECAFDF5063F043207060198073DFF18107905500D780BF2002AF89A0797FD260A1A03500468014208E4FCA4FEAE043FF33506C2,
FA56067B0001004AFDD5FF9702CFF7A5F7DF1136338F0E5008E605FA0651FE2E06DA03670582FC270D54010D0489FBEE003D059DFA30066EFFFE0ADE0E680550,
00000000000000000000000000000000000000000000000000000000000000000000000000000000000000000000000000000000000000000000000000000000,
00000000000000000000000000000000000000000000000000000000000000000000000000000000000000000000000000000000000000000000000000000000,
